FFD8
FFF5
FFD2
0007
FFF6
001F
FFB7
FFF6
FFB1
0035
FFD4
0036
0013
FFB1
FFCA
FFE0
0006
FFB2
002A
004A
0001
0020
0015
002D
FFFE
0026
FFEE
0000
FFC5
FFDE
FFF9
002A
FFA6
FFCC
FFDF
003F
0018
FFEA
FFF1
0041
FFAD
0023
0003
0020
0031
0039
0035
0006
0034
FFC1
002C
003E
FFC3
0018
0027
0037
FFF7
FFC7
FFCF
FFF5
FFB7
000B
FFC6
0010
0023
FFFE
FFCE
FF7C
0030
FFEB
002E
FF82
FFB9
FFDB
0005
0000
FFFF
003F
002F
000D
003F
0046
003A
FFFD
0024
0009
FFCC
0009
FFA7
FFB8
001A
0007
FFB0
FFDE
FFEF
FFE0
0036
0048
FFD7
0049
FFB9
FFF3
FFF0
FFE8
001D
0039
FFE7
002D
0007
0042
FFBE
FFF0
FFD8
0054
003C
FFCC
FFCC
FFFF
FFCF
FFDB
0025
0023
0050
FFD6
0018
FFF0
FFC5
0018
FFC4
FFF3
FFF1
0007
0006
FFF0
FFE9
FFFB
FFB5
000F
FFD2
0040
FFB9
FFD9
003C
0001
0032
FFE7
FFE4
FFE9
0013
0054
FFCB
0035
0014
FFF3
FFE1
FFC6
FFCA
FFF4
FFBB
0002
FFF4
FFC1
FFEC
FFD3
0002
FFFB
FFBC
FFD9
FFD0
FFF0
FFC2
FFE3
FFC3
FFE4
0028
0041
FFFA
FFC5
FFF7
FFE9
FFBE
0016
0007
002D
003C
0029
0042
0022
FFD8
FFB9
0042
FFBA
0015
FFD2
FFD8
0010
FFD9
FFEF
FFDC
FFEE
002C
FFC5
001D
FFC4
FFD6
0048
FFF0
001E
FFF0
FFFC
FF9F
FFA9
FFFC
FFFA
FFFF
FF80
FFBE
FFBB
006E
FFCE
0022
FFCA
0004
FFC3
0039
FFE5
FFF2
FFC0
0001
FFF1
0002
FF9F
FFB2
0022
FFDD
0010
FFFB
FFDC
0035
0034
FFFF
0056
0035
003C
002D
003D
FFEC
FFEE
FFE4
FFE2
FFF4
003E
FFCB
002A
FFD4
FFD0
FFCF
FFDD
002D
FFC8
0022
003D
0010
002F
FFD2
0012
0049
FFC0
0006
004D
0011
FFD7
0026
FFE0
FFF3
FFC8
FFFB
0029
FFED
0008
0021
FFB1
0049
0004
001C
FFDC
FFE4
FFCD
0000
0011
000B
FFCB
FFD3
FFD9
0049
FF9E
FFF6
FFF9
FFE8
FFE1
FFED
FFF0
0011
FFFA
0037
FFFC
0027
0019
FFEF
004D
FFB7
0043
FFDE
0004
0009
0026
FFE4
FFA5
0035
004C
0014
FFEA
0016
0002
FFB7
FFD0
0029
000A
0041
FFD4
0006
FFFF
FFF9
FFFC
0022
FFC9
FFBC
FFD3
002E
FFBD
002B
FFF6
0000
FFC0
000D
0026
0038
FFF9
FFBB
FFB9
FFE9
FFE1
0031
FFD8
FFFD
FF78
FFD7
FFDF
FFB6
FF67
001B
FFEB
FFF1
0016
0025
001F
FFC2
0009
0007
0014
FFD5
FFEA
0020
003B
000D
FFCE
FFD9
FFFA
001B
FFFD
FFD2
FFDC
003A
0005
0010
0028
0026
FFFE
0022
0042
0038
FFC0
0026
003F
FFF8
0032
FFFE
0055
FFBF
FFD8
0016
003F
0031
FFF9
0000
0024
0028
FFB6
002A
0035
FFF6
FFB2
000E
FFCC
0038
0032
0016
002A
0034
001B
FFDE
FFDD
FFEB
001F
0003
000C
0030
FFBE
001B
0047
FFB8
FFEF
0027
0008
FFBA
0019
001E
FFD0
FFBD
FFCD
0051
FFB2
002A
FFE4
FFF5
FFB5
0031
FFEA
0010
FFA3
001E
0046
FFE3
FFE2
0001
001A
FFD9
0029
FFB8
FFDA
FFF8
0006
FFB9
0050
FFAF
0004
FFD7
0021
FFB1
0017
0037
0002
0008
FFC6
0004
FFD7
0039
000E
FFD0
FFE6
FFBD
FFFD
0035
FF9B
FFC4
FFDB
FFC1
FFB0
FFC8
FFEB
0011
0024
FFBE
0016
FFFB
FFD3
FFCC
FFE6
FFC2
FFFB
FFD6
001E
FFFE
FFB0
FFD7
FFC5
FFDA
FFBE
FFDA
0015
FFDA
FFE8
0005
0015
002C
000F
000B
FFE6
FFBA
FFEA
FFC3
FFAF
0031
0025
FFE2
003E
0000
FFDA
0014
FFDE
0017
000B
FFAD
FFEA
0016
FFF0
0017
0038
FFF1
FFB5
FFE6
0045
FFB3
FFA8
002E
FFE1
FFD4
0027
003F
000B
FFCA
0043
FFE4
FFE6
FFD1
0026
0001
FFC6
002F
FFE9
FFE6
0029
0014
FFCC
FFEF
0009
001F
0003
FFEC
FFCC
FFFB
FFB7
001E
0005
0028
FFB3
0021
0007
003E
003E
FFF5
0025
FFD1
002B
FFC5
FFE1
FFD5
FFE0
FFC6
FFE6
FFD4
FFDF
0044
0026
0053
FFD2
FFEC
FFC0
FFD3
0003
000A
000E
FF8C
0029
0034
0007
FFFD
FFD0
0065
FFB9
000C
0048
0029
FFB8
0001
0016
0036
FFD2
FFC1
000E
FFB5
FFFC
FFB3
000D
0017
FFC9
0021
FFCB
002B
FFFA
001A
FFCE
0013
FFA9
001A
0014
001F
0020
FFEB
FFD2
004B
FFAF
FFCD
FFA2
FFD8
0035
FFBC
FFC4
FFF0
001C
001D
FFE8
FFD7
FFF4
0039
FFD4
000D
FFC3
FFD6
FFF0
FFCD
0005
0042
0015
FFDD
FF9B
FFBF
0018
0002
002C
FFFC
FFC6
FFB7
004C
FFE3
0033
FFCB
FFE6
001B
FFE5
0026
000E
0031
0007
FFEB
0016
FFC0
FFEA
0046
0004
FFEA
FFE3
FFEA
FFE1
000D
0029
FFBA
0030
FFEF
FFF8
0012
000D
000D
001B
FFB0
0036
FFF2
FFF8
FFF9
0001
0007
002F
FFB4
0011
FFF1
0002
FFF3
FFC9
FFCD
FFFF
FFDF
FFDB
FFFC
005B
0037
003D
001D
008D
0001
0016
FFAB
FFCA
FFC3
0029
0021
0051
FFFB
0025
0004
005A
0027
FF8A
FFC7
00A2
0058
0004
FF31
FFF1
FFBA
0056
0011
0052
FFF9
FFD5
000A
0053
FFAD
FFAD
003A
00B2
003A
FFBD
FF4E
FFCE
FFEB
0064
0027
FFCF
FFB9
FFE0
002E
FF94
FFB3
FFB4
000D
FFCB
001E
FFDE
FFC3
003D
FFD9
FFCE
FFFC
FFEC
FFD3
FFAD
0012
0009
FFE7
FFB1
FFCC
FFE2
FFBC
0004
FFC7
FFD3
0002
FFF7
0041
FFAF
FFFC
0002
004A
FFC8
FFAD
0024
0000
0028
FFA4
0002
FFAA
FFF5
FFB8
FFD9
FFCC
FFBC
001F
0024
0027
FFF2
0013
0017
003F
001B
FFEC
FFE6
FFEB
FFBC
FFDF
0001
FFCF
FFFD
0017
002F
002B
FFF8
FFB9
FFEC
FFF8
0004
002B
FF9C
FFAD
001B
FFB8
0025
FFE1
0036
FFBC
0023
0034
002C
FFAD
001E
FFD2
0028
FFFE
0015
004D
FFD0
0007
002A
FFB8
FFCC
