0047
FFF3
0077
0078
FF92
0019
0046
001B
0015
FFA2
FF96
FFCF
006E
0071
FFB3
001D
000D
FF93
FF9D
0051
FFA5
FFF6
0019
FFA3
0072
003D
006F
FFDB
0076
006F
0052
0055
FFB9
0006
FFFF
FFF0
FFB8
FFB8
FF93
FFCB
FFDA
FFD5
0023
FF72
0044
009D
FFDC
FFCD
FF80
FF83
FFCC
0045
007F
0064
003C
FFF3
003F
FFE1
0013
FFE7
FFFE
0058
FF99
000F
002A
005C
0000
FFDC
0076
FFEB
FF9D
FFE9
FFB8
FFCC
FFCE
FFE1
FFFE
FFEF
001A
0045
FFFE
006F
FFE3
FFA6
004C
FFF9
FFE9
0015
0031
006B
FFEB
FFBA
FFCB
0006
006D
FFF7
005E
0039
FF87
FFA1
001C
FFE7
007C
FFA7
FFCB
0087
FF91
FFDE
FF87
0052
FFFB
0055
001E
FFAB
FFD3
FFC3
FFDA
FFC4
0047
0006
FFFD
009A
0003
000D
0069
003A
005A
FFF1
